0500FA0704FAFD08
FEFF08FE04FB05FE
F9FAFEFFFC02FD07
070101FAFB0406FC
FCFB0707FD03FF01
06000801F8020805
F8FF00FD0806FAF9
06F802050307FC04
040300F9F802FBFF
FCFFFB0100050106
FC04FEFEF8FBF9FE
080206FA00FEFC01
07030FFB14E9ED0D
0B0A09EE07F6F111
F80F030AFD1411FA
F30F0803F3120EFA
FFFA01FA04FD03FC
02FF0606FBF9FB01
07FEFE0701FF07FC
00FD0703F9FE0602
0804FFFB00FB02FD
0508F9FF03F9FAFE
050503070608FBFB
FCFF080300FDF8FE
FDFA070500FC0106
FCFE01FB0601FC07
FD02FF07F9FA03FF
000804FD07FC04F8
01030504FBFD0307
010804FD03FAFE05
01060007FA0401F9
F8FCFF06FFF8FC01
0FF306F90EE6ED13
1E090BF223D8E91B
282628EC28D6DD20
2C1D2AE626D0DD27
2C0B1EDA32D7EB2E
280D18E727D0F91C
29F80FE72CC4E52A
3EF5FBF41FB7032F
3DF506E718BF0F46
41100AE528B60739
F4EBFD09E8E1FB01
12FA05E5E8EFF106
17341310071F2100
2C270CF7140A131D
321417CF33CDCE2B
301C22CA2DCEC932
370C29C736CDC334
1EF411E31ECCDD26
1E1014E91ADDE718
241825F723DFE622
FA08F800F903F9FD
FAFA07F8FD0602FC
07FE07F9FDFA0700
060207FB05F9FA00
FF0301FDF9FE00FA
F800FCF8FFFDFF03
100B19EB11F4ED12
19F8F307F5E8191C
27DD01FE04DA0C22
21F220ED1EE40806
221118EB1CE20018
2F1F23EA27DA032A
302B3EE342F6042A
06455FF7362717F3
2A396CD53F16FA09
24255BD53A14F91D
1D1A5CDD1AFCF919
0D113CD0F9E2E310
0B2D36D5FED7E810
04063CC7EFF1DF0B
14EB29CEED03E402
1BE21DD51C170706
11EA16D6320F0912
2DDE13CB190CEC17
24F01ED02A0BE812
21FA1DCB3A04FB1C
320722C732EEF32A
2C1B24DA2EFBE61D
F6191CFBF811F703
FC120D05EE1010F8
FA02FE0500FAFD03
06FE030602FC03FA
02040704FCF80100
0404FAFD020808F8
F81500DEF0E9E4F1
1F0602F70BD20C1D
25F3F6FA18EB1C00
161628E03512EF25
1F2839D23305E42B
2F4733EE2502EE24
253F33FB3604F010
003652EE2E0A0FFB
16264D064A052507
2B12450A4E152B17
16122DFB22F80B07
1A191DFE11EA1A03
27020E0515E41912
14DE0CED12D21707
1FCB11FCFEEA1105
2FC7060916F11411
26CD0F002FE60808
36D705F11FFC0A07
44DCFC0122F30002
27D6F60241052A02
12E701F749093717
03EC0AE850F92716
18030AFA30191F07
FC05F313050926EF
17FCFF08121F1BE1
FDFB00FC02F9F904
01FA070802FD0608
13150C0000F7ED0E
F712FFE6F5F0E5E9
1C2302F101EDC913
141F15E601EBEA32
062B49EBF5F9D42B
063240F6F4FBDD18
131C1F0D0EDEF615
0B3028FB0AF0F20F
0C0F251216EB0AFC
150D1D1320DF09FD
040A182D1EDF20FB
FDFE102811E113F3
0DF5120DF2D10EFB
F8E40511FDD41FE6
08CCFB1302D629E5
12BE0B1102CD26EC
16B0FA1619E138FA
1BADFD1B0CF230FE
14AEFEFBFBE71CF7
09C0F9EF07D21F02
1FC5E0ED12D614F6
27D5E0EB1DE00F06
24D6E2F226072BF9
10F2D4293CFE4ED3
F707DC2F36EE50CA
E100F01C2AD824D1
F9FD1EF32BE522F3
FA0503000801FE04
040300F803070406
ED152BEEE3F4E6E6
022A0C24BAFDE5F4
FE3536E8E904E624
0F401BE6D10AB41F
112C0AF0E401D916
0519FDFF0308F310
171F07F625240212
081AFB071C090B02
0B0C021A0CE81004
E30F043420DF21FD
F1050A1F12E217FB
FF10FC270EDE080D
08FFFE1706DC1CFD
FFF71111FFED14F1
08E71C2817EC2FE6
06D7092B1FD932E7
13D40F2813D925FA
06C90E1E0FCF26F4
FCC307130FBF27ED
05BFF804F2C21AE0
1FD5F8F8E3D318DF
2AD3FDE4F1F116DB
1CE7F4FA1EEF28D1
0401ED2D60EE5BB2
1904FC0538E637C4
07011EEE1BDD1BE8
FF05FD05FF03FC07
FD1D0A15E6F0EAEE
F31ADDFB240F0320
F74800E3D81FD223
134C13E8E719F10E
2128F0E9EE2BEE01
0B28F8F5EF11F1FB
0726FDF91C1B01F5
FF1FFE06271BF9FC
EA2515082103F2FB
E22F040106F4F507
EC1CFFF213F6000F
ED1F030C28EAFA1A
EF2202251FE10019
F3230F2823E9051B
E11519192DF1FC1E
DE18251E2EE90514
D0060F1938E8F80E
D3FD0F1A13CCF70B
DCE4FA2821C80BF2
DDDBF31004BFEEFF
F8DFE809EEE8F4FC
16CAE40DDCEA10EE
18BFE708D7D921E2
2FB2ED0AFDCA2FC2
1DD4F32770D949AD
21F7EB1926FD2BC7
1AFD12ED1802F5DB
0408FAF5F80F0009
26350103D8E9D4FD
E432E9E8142E0C20
FA50F0DFC72AE214
07482F02E4FFF7E4
281AF90CFB0C0BE3
0630F518052501EF
0822E9FE1205F8E4
F21BFF08310007E5
EA2AFB031807FB0D
E327E7FE07F80814
F62CFCFC1AF60316
E7400B0311ECEF28
E93D0C1317EDEB21
ED2F1F1E17E6EF23
DD24221D39E9E325
D91B161D2EFAEA22
DA08F20A1CF0F626
DCFDE81615E6FC02
D7EEE519FBE6F7F2
E6E3F306F3EAEEF7
EDE4F710EAFE04F7
09EBF009CB0705F3
19CECD17DEE51DE7
28A7D6241DED4ED7
2CC0E24955F058AB
15FAFA1A19FB3AD6
1BFE09F91E0718C3
22E0E016E0F522DF
3229E4D8CF2AE217
F136E4F2FB37F91B
122FF1F5E31FEBF9
085924F3ED01F1F5
011AF609110703EC
E820F5061B05F8F2
EC2EE8F30BF7FAFB
ED28EAFC1DF6FE0D
E520E8020C030C0B
E232EA01FBF8100B
EB2FE6F709F40D15
FC32F10507F8FC0F
F43A0B0505ECF70D
EE3E07140002DD19
EB2F0D10F9FBE126
E709F53001F7EB1F
E401F117F1F0FC02
DBFFD827EDE9F001
DFEFF21DF6F108FC
05F7E41DEBF80AF9
F7EBF217F2F50A0A
1003F415DBEF00F2
19D8D53EE30226D8
179EBC652EE153C7
28C3D77757FA65AD
F1FAFA3728C539C2
E804ED3444DB0ED5
1808E9EBEB0FFA04
302FDBD80425D73B
1130E9F0F910E90E
FF3704F6E514E7FB
1C4311ED0904D7F6
E536FA021711F9F5
DF2CFC0025FAF700
F138F6EF01F1EE0B
EF29E9F402FDFD05
E027EBFF00FA0E07
DD20F0FAFF090D0F
FD19E4F3040F08FE
0527EBF7F81E04FC
1232FB00F01EF2FE
FB4A16F1D71DD813
E3331FF8C521CD1E
F20A0915D416E715
E505E318DD15F707
FDECE52CEF0D0100
02EBE92EFA030111
0DF7F321FBFDFB0C
1BEBEF1AFDEEF8FA
0E0A011AECF0F2F3
09EEF23301ED1ED1
30BDB26130E65BC3
33F2D27D57CA558D
FF17E64031CC19A7
0916D2F4F702EDF4
1918E7F4EC0DF60E
1D1FDEDAE926EE42
341ECAE0D726D71E
05391101E820DA00
FD20EBEC18EAF1F4
D82F02002409FC05
E52A0D0626060806
E91CF0F20C010E06
E7FEF1F600FD1509
F2F2DFF7090D2103
FDF2EEEE060718F8
17E5ED02FF1612F5
28E0FF0FF6270EEF
4B000DF7E429DCFF
1B150EE7D928C6FA
F502F7D5BA2ED0FE
F506F7EED92AE80A
FD00EE0CEB1CFA07
FF04F527061FFD15
0805F72C0C17F911
1005EE220708F617
11F7F70FEEF0EA0F
FFFCEB1AFFE7F005
F8F1FB3A30D314D6
20E6C54554C5609D
3608B85026F63AA4
15FDCB3307F228A0
F110D102D7F6DFE5
210DEAEAF40DEC17
3004D2F5CD290C25
1F1CD3CCE62DDE2A
FE3002F4F414DA12
F9FC0DF823F1D9F9
EB031B092EF0F804
F1EEF6012DF70F05
F2E9F0F52602171D
02CEF80221011C1C
10C5F4F712F91E19
2CC7E4ED0C030917
45D0F4061524060C
5DBFF80F0B30F70A
43D7FFFEFB20CB0B
F7E804EEEB11C1F3
EAE4F5D9E31AD1F0
FDEDF5D70313DE18
0CFDEF091D1DD42C
0926FB0C1025E820
FB1E07200D21FD1B
F3210C0A0408D840
E9FB030903F9E828
DDF2FD0814E6DC11
E0F203FF44AC09E4
F5F9E525599B4EAC
0911DB4525D73A89
E9CAC34A19CF28A8
06F7E6FDECD9E7F1
0C0BF2F2FB0EE702
2A0BDCE4D829ED17
1B18DBDFE734F62D
FD03F6F212F8F01B
DEE011F129E4D922
F0D5020634D2020A
15C9F6F71DE11B27
1BC1ECE414000926
2DB6F8DF0D0A1021
33AF04F209FC0813
5CB8F201190A0C09
6FB2EA111D331B04
70A9EE2F01290FE5
32BD0325FD0EF0DF
DAF513EEEE08B6EA
E5F9FCD8FCFEBE0D
FC0202D31E0FD420
FB0808F5230BDD27
021BFC0E1224DC27
E50D0A3E1812F521
DF030A250CF4F221
D5E202091BDAF62A
E4E100EA21DAF833
D6E818DE3AA1F42D
E2EF22EE33AE32D3
F71E140C04EF1297
E006F640E9F60CA9
E700FCEDE615E5FE
FAF81102ECF0FEE4
1906EAF4EA15F91C
3D24D2D0E931F828
05F4FD010AFFF313
EBC5F7F526FADE3C
14B7F80326E5061E
36BEF0DD11FA0936
3EB9F0F90D191F2F
3ABF02FFF60A1819
42BEFBFE0E0A1808
5EC2F604212A1A0B
4AB7EA321C333ADC
2AA404470B303CBF
E3E33334140AFCD8
CF123304FE00D1F3
D10A0DE722FDDC03
F0110FD22A0ED520
F91C0BF01115E11C
F915071A1A21F31D
E600101C3216071F
E4E50D1727FEFB1D
F4E206FB10EA0026
02D9FFF423DE1C36
15F917DA29CC1922
091327E20FFE1BE0
DE0D2117E9212097
CC0B2A5CD62F2E99
D70F281AE6211BE1
0FE5EF15EF1B17E3
080FE3EDEA0CEA19
381CC8C5C536E910
16EF06F8021AFA09
04C1F217F30B062A
3EA7E7F002010831
30BD06FD19081030
3FC6FD0AFB22232F
46C70901F40D151B
3ED7020304181C0D
2BEDF716272E30F8
09DEFF38333242EA
EDD81B3E112332DB
BC112D34111010E1
C029250106F9EAEA
E11D25E61904EBFD
F81928DB191FED0A
00150B021D29F916
F923080C3635001F
FF110F052636F825
010209021B14FC2E
0303FFF70DF2FB3D
29E9F0E114170634
3E01EAE6031F0F0E
4111FAFCEA2D35DC
E30626FFFE2C33BC
C4394B35CB4D31AB
D61E241ADD221EDD
17F3EE01EA160AF1
060AE4F60504F70D
431CDBDEBAFFF8DB
0E010E0BEF2702F3
0FC8F935DD1B0E04
25B9120DF322061A
2CE81AFF082A0615
32E10CFCF925222E
26DA060D0006241C
26F1FC0E050B28F9
11FF062415242607
EDEE1D2220322EF7
DEEC1F2E120F30E8
BA16320F10F71CE3
D82B3BE8FFEA09DB
EF2429F10D2BFAED
F11521F1013C0CEE
FD1A0A043050021A
011A08024449091B
060A14FF3B34F424
0E08FCEB2525EF44
0D0DFEDC0418EF3E
2C02F9F20726EB37
4702EB03FC300C03
3C1E0819EC3135CE
F3F83208023C5CC6
C910333FB44437BF
E82B2E27DD2520DB
0113F6F8E309F60F
1326F504ECF4E319
0F2B17F3BDFBE102
0EFE1F33E30D19D0
03D41231E020E403
0FD61608FE230C12
040413FB0230110D
0CF306FDF7241020
0AEAFBFE08061821
FAF2100B09FA1B0D
E7F81811180C250C
E1E83924290E3513
C601312826FA2AF8
C325350B10F115E0
E6282CE4EBFD12DB
FE190CEBFE4722F3
F5111707174E20EE
05060C1A44611C03
150D12063650071C
100B0BF7263A0125
1A0AF0F90A2C0226
202102FCEB3E091B
2B1DFF0BED34050B
38100612FD1C17E6
26230B03F61321C3
E6175A07055170C2
AB284C43BC613DB7
E618192FD01936D3
FC0308020503FFFD
0923F6F4F6E2E51B
FF371D0EC50E02F4
15111A2DF4FCFCD2
FD0DFE36C717FCE2
0AF80C23F62715F0
F4F50525052D30E1
EFED011A05081F0A
E9EC040818FC1C19
EBE8FD172102271B
E4D911121503271E
F1ED190E2FF92A2A
CC12220429E8290B
CF3020ED03F40EF2
F1230ED6E4200AE9
020F0BEAF44E17FC
01FD0B141D4B2901
140F0E17394B191D
1D0A08FA2642131B
071612F71C1B011C
1603F3EEFD1E1119
1F0600FCEE280E0E
280D0407E41F0700
2D15F00BFE0608E1
031BFAFBF1151AC1
E25445FDEF5526E6
B739310BCC4FFFDD
081B0332D11331E3
F91EF5E9170CD922
0F160FF5E5E3E91A
FE2E05EDEA02EB00
2D291B1BECF0E1E4
FD220B2CD71E0CD4
F9101132FB2615E0
FFF60B422B0029E3
F8F0062C190030EA
F9E0FC2213EE2302
F4D2FC1A1BE52111
EBE0041123EA2F30
ECFD0E1235E42D24
E81917EC1AD83609
F62B09E801F528FF
FB1B0DEFF3201BFB
121A12020D2F1707
1A181D0E243E1C09
152222FD1C361715
0E1313F4131F0724
04120C01000E0D1C
09FFFD02EA00030A
240C0206E6060BFC
20150915F3FF0DE3
0E0D0518FBFC2EC4
FB04FA0EE61D34B2
E43A45EED5300CE0
DE4B16E7EC3DF1FD
E4212504C818F6DD
06F8F2EDF503FEEA
1D12DEEFD622E01E
0AF3DBEF100D0AFD
200CF228E503FAF7
011E0222F41A08F8
010E094315FF15ED
0AF203260AE921EE
FFE70C1BFCEA21E7
08E5F61B0EE62AE8
0EF9FE130ECE1604
08F7051217D83514
190207F41DE83219
161902EF13DD2D10
0A1813F6F3EF24F7
201E19F300221E07
140C24F9011916F6
150C2606FD041308
0EFF1B07F9FC120F
10FC14FEF1E31A0B
F90611FFE9E80315
FB000301E5F90702
0A000814F1FD1BE4
F00F191700F421D2
F1FE131AFCF625B0
E9F1F400DFF915D2
C4313300C10A06CC
CF343F07E23708DA
E61020F6D30AE5F3
05FFF8FBFEF8FF01
10FDEA18EFF21519
EDEAFC2D0E0929D8
04251A51DF0506E6
ED111B36E01519EE
F5F4034205E725FC
F1E91225E4C909DB
EEF71413F9CF0DDE
15E3FB12F2C70FDC
1EE9000800CF13EC
2BF7040001D822FA
28EB00EEEDEA31FD
29F7F4EC02E93AFF
21FD0AF516EA1F06
230413EA08F50F16
1BF616FF0FE92308
0DF723FFE9D5130C
0CE01700E2C80F02
09E318F4D4C312FE
FFF90FF4D1C109F8
FAFA1F01DCC60DEC
F0010D0BEBD220CD
F4E6FC2102C937C6
EFF116190ADF1FBF
D00514EEF008F9EC
D61419FCE603F8ED
EB2E29FBE01F04E5
12F4FAEADD08F5FF
071309E7EBF4EFF4
FE0A1204FCF9FFFF
ED2B3A2EF50414DD
FE252222C9FB04D8
DA0B021AD30809DA
D9E101FBC4F2F7E0
D0E5FB14CDD200E0
DEE60700EAC506D5
FBEC0DEDF4D00BE6
02DD00FEF7D619EE
0CE9FFF6EDE619FA
1EEEF5FC04F221FB
1EF1FAF419F82419
1AF818F92FE6220B
0AF415E416D42006
13EB04EF08C90D11
0AF90DF6F5D30314
13E916F2F9BB1A02
0FF11FECE0A30BFE
0B0016F9DD9E0AEA
01F700FFD99A15DF
F2EEF917DEBC20D1
00EC043A13C23DBD
EFEF0D320CD131BD
CFFC1AF5E7F9FDEC
DE120201E7F0FCE3
20F0E917E4FB28E3
0DFFF2FFF90B0406
FE0E0DE5EEF3E4E9
060310FFEDF5EE01
FD2E3E22F5ED0EE3
FD103736EFE400CE
E21707FFE1F9EED0
E50F04D29EF9E6D2
CD00FFF9C3E5E7E7
DA05FE0FE2ECFCE3
F7FE090AE3EBFFDE
06F4080BE9F70CD9
FDFB0B070DFF0BF2
0EEF062023EF1BFE
16F50A103EEF2614
0BEB022327DA2D12
04FDF61217CA1211
1AFDF6F90EDA0D11
0AFB04F802CE141D
15ED0005E8B90D06
16F60A04D7B118E8
1FF3FE03D3A81EE0
04F7160AD1990ED7
F8EB0E19E3B71ED2
EEF2095614C23BDB
E1DF02561AD32EE3
D0FF0E1E020208F8
E3FBF7FFE8ED00DD
29DAE9EAF7E91403
0BFEFC01F30C0703
00FEFEFAFE01F8F9
00020607FEFDFCFD
1D15281EDFD9FDE2
0B0729481FB813E1
0917FF000BE0EAE6
012101DED5F4D102
F32EF4EDD506DB05
FA2FFE02DC17D90B
FD01082DFFFA0DDD
1EFCF731FCF906CC
22F3F13B010207EB
16FCFE3908EE14E6
0A01FA2DFBEA0EE6
F803F9320EE41EEF
07EDF92118EA24FC
0E08FB17FED716F6
0DFDEF1D09E212F3
15F2FB14EBD40FEC
0B01230DEBB81EEB
13FD2313ECC323E4
FCCF291A04B11DEB
E8D4263813BD2FDF
D8E8364F2CDC29E5
D6EF2C7F4ECB25F0
D70A293E34FBFA06
FFF3FC2BFBF724E4
2BEBF6E7E8E3E9DF
0607FFF903FF0107
FB0204F9F9FE0401
FDFFFA03FC0102FF
0F1A0911EAF2E20A
1109E91315E8EE14
0547EAED26F8CB44
2345D8C7F50FAF5A
0842F6E7FB02BB37
0432F5FF1908C02B
000BF61D19F9E70A
1708F42A11FEE8F1
FEFDF82E1FF0DC0D
FA0CF3401AF0F7F3
0209F7450EF00ADA
0B08F14920DF0DD7
17FDED3617ED1BD7
1501F33126E912E7
15FF013F3EEA0EEC
120B12270D0805F3
1FF9213307F122E0
02EE142818F413E6
E8D928212AFF0B04
F2F13C1C0C0DF402
03EC353925F307F8
E3FD386642E50C0D
F6113238071D2BE3
0317340CD7291ADC
FD161CFBD31802F0
01030604FA020305
01FEFC03F9F904FD
07FCFBF903FA0100
FAED171704F1FD07
04F7CFE9100E0405
1723D5E81B08E832
02240AF33207CA4D
042813F424F5BF1D
ED290FF136EEAE25
DE4616E422ED8132
E826FFEB26EF9925
EC0512135FE8B626
E41A01065803C00F
F13110F43DFDBCFA
00170F0E4700DCFB
EC0E15025005D5FE
050201185605F8F2
1C220E106A11E8F0
092B0D0E5110E6EA
032315023F0DD8FF
0B1A201343F8D613
FDF7291246F1C71E
0CF515F63BFBC61D
26DDFC0D11F9E3FB
11D6FF381DE60301
0CF5FA17100C09FB
0A17160AEE220DF0
07181905ED1314E8
FAFA03FA0407F905
0507F900030406FC
FFFDFA06000101FA
00FE06FDFA040502
FEF214080605F606
EEE927292AE70E16
EBEF2F1025FEED26
D20730F5370ADD3C
D72C23E0330AA357
D5331AD03602A74B
D82826D73F049656
DD2B27F5440CAB4E
F9211CF85AFED728
EE1822066804D826
F01F1CF15F11B73E
BD2032DE65129654
EC360EDC40239D3E
F8440FE23C15A845
E13D24DA5109AA45
E9491CD83F17A93F
1445FDD1232FBC32
0B2621F63F06C738
050609E02A0FC337
17F40CE41C17CB2B
01F214F61502E326
E3F011F413FBEA15
070EF0F0E612F300
00FDFC0806FEF900
01FCF9FBF8080207
FBFC07050003F8FC
02F8FD00FDFA00FA
FA000104FD03F8FA
060108FC0306FEF9
1423DED6D62AE9F0
2423C9D5CF2FDEEA
F4290FFB0702F01C
F5220CF90EFAEC1C
F42D01EC0D04E51B
FB23FBEC0A10D521
E328FDD60D17E726
F81604FD1708040D
DB060C002A030723
0E3AE3C3F831DC1C
C73216CD2B21BE57
E1220CE0131CCF3D
F227EAD6031DDF2F
0334DDC3F342C737
EF28FDD80D27C331
FF32FBD81128DD3B
3A0DF7EB0B10E932
33EDF8D50223D843
22E8FAD5011DCE33
19FCE5DEE828E122
050102050202FE07
FE02FF03FDFB03FB
F9FFFCFBFC0206F8
01FE00FC070703FA
FEFB0704FAFFFC00
050402FE0405FCFD
03FA0203F905FCF9
FEFE05FA0706FD06
FAFA08FF0704F9FD
FA0202FB01FA0801
FA01FDFEFF040807
FA08F90207FAFD06
FC04FB05070707FE
FF0208FF07FC06F8
FEFAFF06FC0107FD
FE03F901F8FB0407
F30C03F8FEF71014
FA120CFFFF071509
040A0CFAFB03FD10
0E0A00FBF70AFB02
FF0305020605FD05
04FCFC070802FE02
FBFBFC0102FE0402
FC08FA04060000FB
080203F800FDF8FB
FBF902FE00FF06F9
070600FB080303FC
FEFA05FCFE03FB04
03FB050004010204
FA000505F902FC07
0001FF03FAFDF807
03FB0602F9030408
FBF8FC060605FB05
F803FEF8FF03FB02
070703FE08FC04FA
0800FEF90405FEFE
00F50C0303FE1608
F3FB00001BFC011F
E5120AF916FBE81F
DC190CFE1CFBF622
DD1014F91BF30D26
DA0C11FA1DF81223
D21418F51BE52F20
D22E0BFA3ACF0E37
D52A0CF632DC0339
D22C1FFA3BD70C32
ECFE0B12EC131CFD
D13E121225F8E734
0C3B0E0B25EEDF35
F33B0CFF2DD9ED3B
CF201CFB35E42721
D03126022CE82A2D
D02D1DFA31E31936
DF160CFE1CE50712
E11E0B001FF0E417
E7260D0111EBE21A
04FA04FC0105FD02
06FCF908FAFE0304
FEFD00FBFE000206
0306FFFFFFFDFEF9
FEFF03FBFF0700FE
FB04FD030701F805
FD12FFFD0FF71616
FA180E071BF7F020
EE180DFB29EBF129
E218E2FA1B052B12
EC23FFF42007132A
D82BFEFF31DE153A
C52508EE22C52738
F23406D804D62153
D34716D71FC12D61
F0600CEE1FD3386B
ED6608F515BF3055
FD571AE6E7D2362D
023206EBD7C54727
125011FDD9E5312D
1A3F2313EBD90E36
EE152402FCD80F23
CFFB390712E01019
DC07280C02CF1527
EA1B14FD1ACA1A2E
F12A0BE520D01D2E
E92003E827E21624
DC3815F62EE40B33
F61AFCFA00FD0228
EC06EEF1EFF9F71F
05FDF8F8FA000302
02FAF8FD0405F900
0308FB0707FBFCF8
F901FB01FC07F803
1719180EE50FF127
D91F1E0519EAEB2B
DDF51E0800FEEF0F
F0ED190BF2F72F31
DA030CFCFDF23738
D11416FEFEE33632
DA30250A12BF0A50
E5350FFD0DC42263
EB150DE00CAC325D
0C2102E510B5295D
15302705FFB50462
0D4916E821B7F74D
231F0BF625AEFD3F
0F1B250018C1F63F
1A2325F706C4FF2D
110F22F71DC5F929
DFE83CED1EC9F822
E5ED33EBF7C4FF19
F9D9400805B2FB07
DEDB24F911CA08FA
D9DD13F422D31301
EAEC13FA2CEE0FFA
EEEB11FD20DEFF0A
01F206FCF6DBEEEC
E9DF00F70BE0F6FC
FF07FB04FA01F8F9
FA0208040500FB03
1DF30A1905F80C19
0206241CF71CFC0D
11022C03F9DED915
00F30503EE193406
09E81B17EC175936
FE201906E7133E2B
FF051A05F5FF311F
EE17330B0B1A4234
F4091FE90A153F3E
F80034ECFD082737
F0F621FC060B142A
F90B2007FB1A1D10
0830151A050B210A
0428172302FF210D
1525211D0FF1030F
1E142C0C16E31912
1C081A081FE51108
0DF72C1C0CDD0109
11F82A0D03F21C0F
07EF0A0106EA2302
FCD41A13FBF026F5
F6DB020808F123F1
E2DEFCE9FEEE16EE
D9B00600FBDA00C7
D9B612FC0CD3E7D9
E1E219FC19FAF3FC
080DEEED25EE1419
08F908F908FC0603
FFFBFE07FC0505FF
1F2B1813E8221F3D
1AF02300CF090E11
1DF711FEED304D23
21DC3709C91A160B
0AF23306F52B1FFE
FCED2CF8FB1926F2
FFEC1BEE0D172404
02DF24E8ED161B02
01E812F8F0FE0F06
EEEAF8FFFD19F1E6
E5FCF9FEF41BFDDF
E923F6200A0DF1E8
F02A041517030FF0
072B0A180BFF11F4
21200F140FF02103
1B14FF1220DD1CFF
2D18FB0B13D91400
1406090913DB1C0C
000501030CE32808
060403FDF2FA2916
FEEB0803E2FE2713
ECDF04F4CDF63E05
DDD30705EF0320F5
D6B81C012BF602ED
E4E5120F0FEB000F
01FBECF40CEB1B0C
030703FB070405FE
12EC0F12E4ED1911
23E210E207DAD50F
40FA21E3FD17E91C
34E91DE2E6142218
2AD128DBF6FE1DF2
1EDF20DDF11317F8
0BD213E9F30C1DEE
13C810F4DE1918EA
17E30FE5D60F0DF3
13EA00F5ECFFF0EA
02FAFBFCF709D7DE
E9FFF70DFF05E4E4
EC1EED1F0507DAF0
DB3DEC16070DD3F4
E233FCFF150FE1FE
0A45F00E2C0FE2FE
243BFB053301E9F3
2B3D050A26E3DCED
1E20FB0126CBFAE7
110E0D0611CEFDF4
0E0C00F518EB04FF
07F6FB03FED51510
E4E109F7EDF12FF9
B2BE3312DAEE1702
D1AB36FD0E1A0AF1
E8E22204E90AF7F8
10040006EFEB1C0A
0AF902FD02F9F707
2EE92D13E8DB0522
29FF04D615E7E102
60E326D50B11EC10
45EE25DAF61B461F
2ED01BF4F1FE47FB
15C60AE2F80127EC
15BC08F2F3FF1FF3
0CD2FEEAEB091BED
1FE501E5F40002E9
12E3F8F600F3E9E8
07EEF7F701E5DEF0
F70A000404EED2F2
E61AEE0AF50BD6F6
E625F50EF411D90A
ED29EF09241FE8FF
103DF90A1B1BD6F0
3331FB0C31F9E0F1
3C330A0235EBE7EC
3222170D1BDFF4E5
1B231C030FDBF6EA
021600F218D304F5
070A1F03FECD1804
CCDA1EF816DC0AEE
98B625F908D903E9
A59F3202F7EBF9E1
E3CB1E0ADD0012EB
0CFB040EF9EB010D
230CF80019E7130B
2B042DE71BD1E428
3FF502D112E9F90B
32E130E71301101F
2EE32FE2EE1E4213
11AF18FBFC192FF1
FEB509FBFD0A14E0
0CC605EA07FE15E3
04EB01EC02F6F4E0
13E1F3FB0EFAF9DC
0DF1001209FAF8F2
04E4060707E4EAEC
F4DE1BFA1601F9F3
CBE212021817010A
C30D13090A12ED11
F81903061E21E309
322BFD072E19ED0B
3C2913FE2606F502
371926F933FAF2EC
28272BF523DD04E8
0012290C13CB03F7
EA121A051ACB06F1
D70B350A10C5F409
ABDF26F51DC0EFF2
80BA26FD20C1DAB7
948A3716E5EDFCC3
DABF400B01120FE6
F3DA3F1F1F0EF5FC
0F0311EB15EDE9FA
1BEE19E723E0DBFD
39F10DD304E1F5FE
1AF741F614FEF320
03D943EE03F0211B
FABF14E5080F19FF
E4D90D01F6F9F7E7
E1E310FAF9F70AFB
F8FAFC13F9EFF3EA
E6F3F61D04F6F7E8
E002F116F9FFE8DC
C6E307FE08FEF1D5
BDD216F71B06F6E5
94E914F8251DF9F5
A80624EE1D1ED529
102B1403F233E125
551D13FCFC32F021
461322F71733E907
2E1C1BE4141606EF
121522E720E816E6
F61629F32CD61AFA
E0FB36FC1DB81900
CBFB490D16B8FD10
ABF82B162FB6E3FB
80B6372A2EBEBEF3
8F867642FCD7DAEA
D7AD6524EBEFEBEA
E6FD1F02E5F4E2F7
12030AEB14F5F1FE
16F60AFB0AFEE3F9
37F216CE24EADCF7
0D0039FF0EDBF61F
E6DC44E307F4FAFF
D0F418DFFD02E7F8
BDF6FEFAFCF7EEEF
ABE4FA0407F7FEFA
CD01F31BFA00FAE2
B9F3EB0B030DEDD8
AEF4F5010E19FAD8
99F0FF031416FECA
90D10E13292308D9
8ECE330B3B13EF03
A70337162C26BB25
1B07280DD944CF15
560B1704E441DE20
4B0F11FCF245F51B
1E1D11ED183E05F4
051B19E4140818E8
F61A22FA26D304FB
EC051E011AC2FD06
D2041E0D1FC6F008
9EEF182339A9D306
85963F4C0DB0B70E
B6A2576FB8C0AEF9
E4BA6943C6DFC20B
F4FC07030029E3EC
0AF406F60DFDE8FF
29F11AE324DBE307
19F62AD129CBCDF2
21E837EA0DDCEC19
CBFB3AEDF0EAE9FC
A606FEE4FBFAEEE2
A0F6F9E409F8EEE7
9BF6F9F31D14F4E5
A902DCFC0F18EDD0
BDFCE9EB03200FCA
BD04EDEF0A1F09B5
B9F2E60E1827FFCC
D2C3FE17311F1AE0
C3BF2C2F4007D516
D8E02D37192BBA1B
24E91833C83ECA0A
3AEDFC20C044EDF2
26FBF809ED47EDEA
0918000AFC48FCEA
052EF1F307181300
EA3AEBF91DEEFAFC
EC31D4F72CC2E913
E422D6EF37B3E1FD
BDFFE8FB449ADC10
B7B60B262AA7D40F
CFAB3A5ED3C1AF01
D6AA5A37DF13C2E3
E9FF1E0BFE18E4F6
FE0006F50BF7F3FA
1FE32ADA15EBE7F6
19FE19D61DE0DAED
06E50DDF19E0E5F8
B0140AE5FCECCFE5
AFFEF1E40DF1EADE
B1FDE2E319EDEEDC
C3F2F5D8091103C7
D904D3D8F91BFDD0
D206D5E812210DD7
E401C810FC0418DF
FEE7D411FF0C23E4
1BAFF41F0E072E1A
F7B60A321513043B
DDFB1E3BEF2DD82F
0703112DD546E704
1DFB0311E04E02E8
0AFFF910F156FDE9
F816EA04F143FFEB
E525DFEC122A04EB
F226CBE920DE02F0
F425B7D12DD309FD
F93392C046C800F9
D5188CCC61CB1AF6
F7DEA5CC6EDF4F27
05C1F818FFD9F812
00D61D2CDFE6CA08
FB18171B00F8E717
FC1F0D1CFA111C1F
0EE50DEF15EAE6F6
22E121D327D9D3FF
0014F4F413E5DA08
C71CDBEDFBF1C6C4
CCE8DDDD06E6F0DF
D8F6DABF11EF08E4
F6F9CCD4FCF4FECA
0111CADDFE0B13DD
06FDCBEE01FE1CF2
0B04BDF205EF1500
26EDC70900F72E0F
11CEDE1AFEF93441
ECE8FA38F512103E
EA130F43E62AF828
FC05FD2AEA4D1DF0
0705FC12E45517E8
FF03FC0AE04F1BF1
F502F80DFD410CF2
E317E5F2100D0AF7
FB04D6EE0ACC02F3
241AB1DB16BEFDF9
070D89BA2DC60AF9
FAF489C046DA2323
10F5B7AF4FDD2041
20DAE3F40B090720
2FEEF40ED814F223
0E18DFF1E212F920
FEF21012EAE4F20C
0FD5120711F1F5FA
25D536EE2ACCDCFF
07FDFDEDE0F5ED01
0703D3E9DFFCF3C3
FAF3CDBF1BDF08EF
F305D4AB08E208F8
1202BFB206E20BEE
180ACFC2EBE21101
1E00CED4F7DF1F14
25F4C1E40AD5181A
28EECFFD1BE8262F
13F1EB2004002B49
F3FD0E2000241D42
F3132022EB302522
F80C1012E93133FC
0A05FBFEDA3829E8
13F8F5F7E73E24E0
08FC00FAFD0B0BF4
1DFCFEF302D80600
1D06E2F1F69DEBFD
2504DDF015A9F911
1AF5C1E110ADFC06
14DFB1D229C3FB1E
0CDFBFD729D7FA4C
23E9D2EC0B212227
3E38E4E8CA31D747
231FDFEBCF0CF219
0CE81609F2E8E90E
1AF00F15F1F9F70C
2AC23B1BF1F52625
0905FEECCDF40A0C
1B0BEFF8E3F802F9
141FE1BD18CC0813
0B06E9AAF7BC0E0F
220CD1860BD3150B
2301C380F0E32504
1CFDCF8C07DA1F10
1DFCC7BD0BDD0D1F
24F8CEDEFAF5343B
1DFBFD11E2023640
05FF2713E328312C
FC043A12E737421D
0F000700F2322FF2
15F9E8F6C93330F0
1AF7E3F2F21817EB
11EC020902DA0001
1FEE070C02B90A02
24ED100805A7F4FB
29EDFFFC05AAFB06
13E5E8FC10CB0AFC
22D3D1FD1BD0F814
04E8E2F223CDE45F
22F9C1E70B092032
590DE400AF2F0A0D
251806FDE223171F
0F0812F20818F302
18F5211EE9FFF41B
36F33804E10C2318
08FE12FACDEE0935
071C0120F0EEE733
0B18F40008B7F928
0408F3C8FFA10D18
14FCD8A110D41703
1CFDCF8011F414F7
2708DB8019FF2020
1513E08012F3163E
1609E586FEFC2940
15F21AB5E0162E1D
07EF42DBBE1A3719
04EE30F4D527450B
0DE705EAF9252BF9
07FCF2F4F3172BEE
16E8F5F9F6E511FE
23E20615EFBF110E
35CE1C16E7A2030D
1DCF120EECCA06F3
1FD40802EBCC090C
09DC02FD05DA030B
10CCEDF010E3071F
0AD4EFF8FCE6074A
1E17B4C2E700364D
611DEBE3B8230728
232AEBFCF11C1038
00F805FAFBFDF904
26F52B21EAE9FD2D
4AF916FECC092210
0DFC3516CCCEF237
17081427E6BDE53B
EA010518F8A0F72A
EEF3F304FD8EEA13
FEF9F0C209B2100A
0AFEDA881DFB1205
0013DF802CFA0911
031FD9802411152A
090FFB800E041927
13102380DF1E1C12
02082CA4C11D32FD
0CF71BD2D41532F0
03F7FCFAF60016EB
07EA060009F324FD
12E2011000D21118
1ADF0406E0BE0606
1CD71419EAC20308
F8C6070BF8D2FEEB
06D6060AEBD90EF7
FEE5FEFE06EB0616
FACAF9E10CE40A16
03D9E2C8FFE7F51A
1F3EC0ABD6F7FB4C
4720FCDAD511E51C
0316E6FB1408F328
F11019ED0EF4DB0F
28100F0DEA061F0A
4AF010FDDCF017FF
32ED3B47B1DA0424
10FC1C2FC6B0F42B
08E70727DDA3F413
F5E5F828FE95F90B
040DF8F013B6FB12
0807F0DD1BEAFE0C
0915FFB8220DFB13
F024FDAB3318EC20
EF1718AD2314F816
FEF7289AED0F3215
FCFA2ECBC30627F3
F70415FFDB0612F2
FBED140804F42206
01E8150511DE2322
06EA171912CE0623
14F10D07F8CF0C1F
FFE30F07DEDFFF04
EBDB0B0DD9F0FCF0
EFF5FD0AE0E41407
E502F6E4FAF7041B
F200EAC306D71125
F605D4D3EFEF0A1A
1D55B7EDD4FFF554
2A3208E6E31FE403
2832040ED8221D2B
FE07040FF50F0309
15FD19EB26E7E306
ECE506F8E4D2EFE6
31D51A40B0E30F01
1B011B2DDCB10116
06E70441FF970A15
FCECF63B0EAD0207
FC1BFA141DE5F714
F709092021EDF20C
011D1E0E2C03EE1E
F62B130A2F19F72A
0A2509FA11F8011B
FD0B0CE008F7021E
F8151BF5E20A0F11
F5FC1105EBFF180F
05F9131201EB2523
06FE14110AFB222C
07F1170907ED0F2A
F2030D04E5E20C22
F10009FEDCF3FF01
F0010203DBF90303
E80204F1E2E4230B
D31BEED604F2121B
DA10F0E2E9EE030C
F614FAFEE103D8FA
0F50CA08B61AEE4D
2A3FEBF4CE211931
13260501DF121121
FAFE05FE0705FB07
12FCF7040BFAF603
FAE9E9EFDFDDFBEE
30F11023BBCC031C
190EFF22E6C30022
FF02FD341397EC1A
0501103411C5FF1E
01110E2329FF1224
F1111B3115F9ED1A
0714272C190AF925
0A29112E2712052F
0E1E0C2421000120
031D0C001FFD0D28
082012F811F7FD24
0719220B03FA202B
07041A05040E2524
FA080D0DF714221B
03FE0C10EE09131F
F70A1505E10B1F1D
F11A02F8D7FB060F
F60EFEEED4062B0A
ED19FDE6DEF92512
CF0BF5E5E9F708F8
E61EF5DAD8F5EEF0
F932E3E5C51FCCF2
F231C5F4BB1CD81E
263AFB05D21D152F
0A13141CE3FBF31B
0F181510EF19040C
0F0C0703F7F90DFC
440FF4F9EAE21C2C
3A23F812CCD30549
FB1AFE23E3CAE711
FF1BF030F3C7E10A
F723102F13D7EC18
EE141A2D21E1060F
FA09062517F0140A
FB15FC2E22FC0700
00130A3423080719
01070B2934040619
FD0B1A1131F4131F
F8181E0C2AF6262B
F517290012072A26
FB0F1507FD1A2320
00180DFFF9171523
F8FD10FFFA181C1E
FF181EF2DB122618
031607E3C6042314
F601FFEAC8F81BFE
EB13EDE2C0FE12F4
D90DECCDD8F616EE
F921D4C5C9FB09DF
0641C9E3ACF4CEE3
FA1AC8D8C81BD71E
1A07EAF809EB0F25
010AFF0B1001FF01
0E160F14EC130B1B
0E180105FBFC0500
490501FDF0FB2728
1221FF11D2F60D2F
F31B1015D5D0E50C
10480C07DDF1F224
0E2BFB0116E8F90C
F81B03FC25DEF9FC
082EF90F15E6F500
F722FC171BF70C02
001B061A2A021305
F50C0D2133F60E0F
F60A130D39EC0F01
FB050D0634071B07
F6121AFF190F130E
F806140818111921
FF0C0CFC040C0C0E
02051806ED0F0E06
EE0612F3DD0822FF
F5FC1BF9CEFD2702
F7FC01F1BB0516F3
F306D9E1BD121AE6
EB02D7C9D20D03DD
F506D7D6C7EEE8D2
EF1FB9DABB0DE2DA
F203E2DADB1EE907
FEEB0D21DAF5EBFD
0A0AF6FE10FAF90B
FCF9FAFBFEFBFD08
010105FFFB02FF00
2CEE2620E6E52629
0EE22A2DC5DBEE24
F3DA3C26D2C1EB0D
01152717D3D7DD16
160E0DF6F2D8F80B
270E0AEE10E9F9F9
0407F3FF20F40A02
0BFF09071BF30D0A
09080C1519F20D01
070C05162CF90C0C
FE190C1C2D011804
0909160F390F1BFE
FC0A0810210411FA
E6FE1D1518091A01
E2021307F9111CEA
F5F917FCED1911F5
02F90CF3E0242EE5
F202FCE6C11532E8
F0F5E3EFA9071DDA
F2FAC3D9B92B1FE3
E526BECECC19F1EF
E311C7DFC210EDEA
EA17D2F1BB07E1EF
FEFDDEEBCF19FE04
10F72925D703F519
F90704070206FEFB
070000FBFC060306
FFFA0205FC01FA03
2AE62410E8ED040A
32BD4732E1C6D112
21E22526F3D2D1F8
25F01516F2E9C4EE
35D71C0BF5DBDDF1
1CDD1010FFE4EDEF
0EE21A0215E604F5
03E2171606CE0D06
03EE17180AE804F6
09E821051FF810EC
0D011DFC2DE80D03
19EB2B0125E109EA
FEE927F915E80DF5
DDE521E41DFD05EE
E7E815EF0F060CDD
F4FC14EEDF09FCEB
F2F9FEDAD61505D2
D6FAECD4CC2701C0
EC0FD8DBC61202C6
EB17CFE8B22CF500
EB22C4EBBC16FFF3
F027BBFCBD14F5E8
012FBEF7CAF5EB13
FA2BE9FAD920251F
08201405E1FE0D15
04050205FFF90700
FAFD040308FDFDFE
02FE00FB0801FD04
F2FCFE15EC0FF80C
2EDE060508FBD1EB
46EA02EFF8F4C5DD
1B04FC0EE9F5C9DC
11FA1912EFD6D8EA
02F316180DE1D4EB
F807321A04CED7ED
EFFB301EF0BBE402
EEE4260D11D1F8E7
01F739F115BFEFEC
070350E8F8C3E9FA
12F534E2FBE0F2EB
FDFC1DD30D01F0CC
E2E714D514E8F2DF
D70A10DC12EEEAE0
E6F718D8E8F9E1DC
DD0B0BCAE2FBDEDC
C1171BCDEFF2CDD3
B241F8F8EE00D1C8
BD38D9F6D5FDC6E4
C413E0FBCEE7E3E6
E409DA13CFF1E0E5
E8FEE0F9E0E7CA08
ED19F5FAF201FD0E
060E0104F9EC151A
FC000205FFFEFA02
03F9FF01FA050601
FEF80702040100FE
F902FA04F904FCF8
F411EE10000FF2F8
E111D324DC2FF7DD
E912E213D819E5D9
D927E6F4E425C9CB
D631FBDC111DD2DE
E22504CB210DC1CC
D23DF9EE0AFF9BDF
E935FFEA0DFCAADF
E21E16E60BE9C3DD
D12A0CD408F1BFC8
E11B13D517D998D2
CD2DE9ED19F580B8
E10DFDF904D68FD4
E6220EF411F095EE
E61507F800FD9EF2
CD21050C0B0695D6
D62A17F21FED99C1
BC3EF70AFAFE97CF
C623DD08FBF4B1DF
EE16E10C0EF6C0DD
ED03FAF1F910E7E1
FE0B0200F408E5EB
04F6100108F4FAFC
FC070504FDF904F9
06F8FC0104F80702
FDFB01FAFBF806FC
FDFBFAF9FFFC03FD
FE0201FC06FDFC06
0100FA00FFFE0406
18D032EF1BDFEEF4
1ED630E219E2EE02
F9FD07D722EAE6ED
01FFFFC423F2D8FA
FA08FFCB32E6DEFB
EF1910DA26F1CDF3
E41B17D225EDC2E0
E81502DB11F9CEF5
EC20F9D7100ACEEF
FE0934B820E8CBCF
F22511EE460AAFA5
030702082EFDCCD8
0D062FF625EFCEE5
050F3DD636E8C7E0
FB1709E72BF2CDE8
071419E924F2DEE9
0215F3ED1000DC01
FF21EE0208FAE0F8
071DE8FB0EFFE107
07E7FAFC01FEF2FD
FDFCFAFBFEFDFD07
03FF040601000606
04FA05FF050404FC
03FCF801F8FD05FE
0402F801080304F9
FD05F908FFF9FB07
FFFBFCFF04FA0507
05F9010508FE0701
03FDFDFAFAFBFEFF
FC0307FBFAFE0200
03060402FB03FAFC
F906FDFC04FD04FC
FA04030805F90104
FEF8FEF8FD0408FA
FDF902FFFDFDF9FE
000006FFFFFE00FB
FE0700F90BE7090B
051702F102E7000A
0E05060206FBFF02
04FF03FB0BFA04F9
FBF8FA0307F80102
F8F8070403F90801
0207070705FF0501
050201F902FB03FD
F9F80505FFFA01F8
0607FCFA06FDFF08
FDF900FB05FC0105
FD030304FCFF0400
03F8FEFAFC06FE04
020008FC0702FDFC
F900FB01FF040604
FCFAFCF8F9060306
020503FC04F8FDFC
03FD03F9F90505FD
0608FF03FCFE02FD
FE000003FE04FB03
F010FFFAF901FE14
0B22FBF9FAEF000F
1F2901DAFDDDFE1F
212C07D6FCDFF924
132705E7F3F0F31F
0D2601EA00E7F828
0734FBEAFCEE0228
F02DFBDDF3CCF42B
F233FAEAF4CBF93E
FA3702CEF6CA0844
FE0907E9EE110D03
164305E3F2DDFD34
0418FADBEECACB10
032804D5F6DCD936
0637FAEAFCE2252E
1832FBE2F2D83529
2338FBE9F2D72E2E
0B1FFFEBF4E52013
1722F8DF01E8121C
251900DAF9DC1223
01FBFEF80408FFFE
04FDF9040103FA01
0808050204FE03F8
0508FD05010004FD
F9FDF906010401FF
07FB050200040007
FE0FF9F701E6131C
0111FAF2F8E7F715
061503F306E32012
0D2102F20701180E
1C2AFAD30CEDFD0F
2733FCD507D6F32F
2832FDD20EDEE124
4B1700C01BE5D4F5
442801B915CCDB20
3F2AFEBEFED3D927
342603BEEDCBE61D
3B3406C6D8C6F919
372706B1C3DDE90D
5D37FDB9C0E4FC14
5330F9C3CCECF621
4D19FCCACF25EF40
4E2EFDE9F2270D3F
3924F9FD020A5E49
4018FEFAF3015329
312506DDED00552F
1835FDDCFAFB5230
3A21FCD6F7DC2A24
19F402EDFFE3F6F0
0EF7FEF308F8F9FC
03FF06FEFC02FF05
06FBFB030301FA04
0400FEFCF8FBFEFA
F802030205F8FB05
1810FEF405E80AE9
1F2902F2EDE4FF2A
2C140804FE11FF1B
12F6FFFAF8FFF711
271B03DEEFF30714
27FCFBCB15E6F80B
20F6F9B92CC1C4FF
4D0DFDAC3BC3C0FA
36FCFCB841CDAC0E
24E8FEC62ED2A817
35F8F7D236BFAA06
210CFFAE34A7B21D
110601BC2AD2BB05
1A1904C81ADFBC1A
2A05F7CA07E2BF11
17F7FCDE0102D51D
2DF40501F422E03A
24FB08041221EA2A
15F3070F1036F33D
1F000310FA4A0A38
0A03FD0BEA352D3E
FB0C0513E8262C3A
180207071514061B
17E7F8FC1417E7F1
FE0007F41522121B
07FBFF01FEF8F804
FAFCFE0606FAFBFD
E8F40408ECE80209
020CFD09E7F1FDF6
02F30018E2F7FA20
FFFFF910F4EEEFF3
32EBFBE6F1DEF1E3
3DE805EB0ED8F4DE
12E4FBE720DCD3FA
09FDFADF11C3B8F9
1607FADB36CAB301
24FAF8E834C09E16
15EBF80534ED9E0E
20F402FC25EBA304
14F5F6EC0CDBCB0E
140FFAE815F2BD13
1618FBFB18F7C526
130D02FD10FBC928
1809020E1315E521
20FDFC0B2311E91D
1109080C060BF924
0014FBF8FA0D0B1D
F7100311F21D0A39
E4FF0810041D1C23
F1FDF91A05255114
FCE003351555170E
FDEEFA251C40DE0F
F003FF132626EA2D
E12500F4F8100B1D
FA0107FFFFFB00FF
01FDFC000002FE06
1F0902DEF4D903F3
13D5030303E3FBFD
1CD301F4F7D8FECF
0ACE020400E800D0
FCE906F40CE3CFD7
ECFE06FC0FF9CEEC
E408FFFE2802A9E9
E80301092E0793F3
07FDF80D2FF48D0E
06E5F820290BA21D
06F8F9081F07C012
01FBF9F82609D628
FD01F9EA1DFED91C
0800FBDD10E9D917
1C0505EB1301CBFF
1DF800001B09E21E
11FAF7F61AFFFA1B
0F00FDF411F40E31
0E01FEFB14F81931
07FE030017E91129
FE02FBFC0DEE0809
0F10FDF902F82F03
0F0FFC0AFC213212
F604FC332542E52C
0B1707191138263C
ED1B08F7051D1926
0001FDFEFE0506FF
1CF800E91EE3E7F2
DDF4F90F262BFEF4
E1CBFCF20CF20CE6
04BEFBF40BEC1CD7
E7E7040923F9E3C6
DAF5FA0424EDCDD1
D911FD0921F6B7EA
EA01010D2D0A9DEF
F3EBFC211E108BF9
FFEE041A2A039508
F8FFFB181B14C811
EFFF0517261BE018
F9E7F916290DD82A
FDEDFEFF2F0DEB1C
05E60406211BDE18
0FDF0301290FE11A
FCDDF7121E1AF011
07E3030624041B0F
FAF1FB0F21141C18
03DFFB181A0D2F14
EAE8000A10F115FF
E2FAFDF925EA15F7
ED18F9FAFAFA2503
181B0503FF1A3A27
1316FC29074D0343
12F7FC1D06320E1E
031808FA2302112E
F805F8F80A15F902
201FFBE624E1DBF3
DDEA08033A2AF2E5
D6C0FAE229050AC9
01C4F9DD01D105CC
E9E202F80FF0E2C9
D5EAF70522F8BCD0
DD0F03012009BBD9
F6FBF81A2608A3FC
F20C022130119FFA
E610022E301AB60A
F8FE011E3A1BCC0E
F6F9041B361BF51A
00E8050C34190415
1BE30204410C0F24
0BDAFD0D3318FB24
FFD5FD1B42120122
E1E2FC2036171A00
EAE804183B131801
ECE5F90C36102102
E7E1040C240F28FA
E4E407FF0B072EF7
EFF1FBEEF8081EEB
CD0504F3E4102FF6
F70BFE18E5331515
08F9FD39FB511014
0305F813112D1706
0C12FBF307060B27
E402FDF40AE9E0FF
EE1305E11D0AC3F8
D9E7F8061F20E0E0
DFE9F8DCFC04F3D9
EBDBFFD6F2E3FDBD
DEE1FEF1FF0CEBC7
D50101010F04CCEA
DB11030B1809B2EE
E1000126231BB60F
E113F9202A1A9B12
F60F06142707AF0D
FF0BF7183625D80F
F70CFFFD3C190D14
03F306EF47082E14
0DD5FBFB50F02308
01D3FD0644F30FF4
ECD1F90F3B010101
E6E8FE0E2CF808F6
DAE002091E170CF1
F8DE01F9110416E0
ECDF03FB180E1BE7
EDDEFC08FB1325E8
E4E60101F5090CDF
DEF1F6F5F51F1ED5
EFFEFF32DC4A2D09
0AD9015BF86E2E13
FC03FD120828F315
12040507FA10F42A
F603FDF90407F0FA
DC12FCEA1C28E6ED
F10302022415DFCF
E400FDDD05EFDCC2
E9E501E6F9F4FFC3
E0D8FDE50913D4BD
E2EC000BFE139DFD
ED00FA150805910A
EE07FA200D0C8B15
EA04FC1A1B109413
0008FC101B11CC29
0A0FFFFA2B1B0D22
06E800E33D0E310F
FCD0F7D636F0520C
FCD3F9D11EE732EF
05C9FBE006DF17CE
E9CCF8F101EDFECB
E1DBFAF20BFBF8E0
DEDBF7F40A0501CF
DBE501E5FD0FF6D5
EBDCFEF3F20FF9D9
EEFB0608EA1904E1
F1EF0614F21908CA
D3F6030CFB1C16DF
ED01F74EE9484C1B
11E10064FA65224A
07F4FE3EFF41F715
F4F308061428EFEA
F7FFFE000708EEFE
DF1403EF111EFBED
D610F8E12B10CED2
F9E108DE03F4D5C7
ECE601F90E18D0BD
F3CCF9E70D0CB7CE
F1EAF7F212148002
F317040A01089116
F418FB260E17AD24
F612052B0D26B31E
08110410011AEC31
08FEF8ED1C0E2116
0BEDF8DD0705480D
F7F3FAB9FDEC520B
0FFEFAAFDEE253E7
09F203E0C7EE32B5
F4E704EED7FC03C7
E2E704E1F5FAE9E3
E0F0F8D9F409DEF0
DDF502DEE503E0E7
DFFAF7F5E90AD8EA
D91A0305F307F8D9
D3020318E71D04BF
F30CFC2DD7211D01
0D03FB64EA5F5334
34BA067C07764F3D
2CCA0656373B1327
E7F003022016DFF5
ED0605F7070DF0FB
D02B03DD1201E1DC
DA2B01CE1B21F4C0
EAF3FBE4F5FADDBB
F4E704F7051FDCCA
F6E5FDFAF426C0FD
F20BF80303238A1A
F425FA1AFB19A21A
F714FC24F128B622
EE1C0525EF30D01A
EC0FFB0FF32DFD15
F5F5000EEC133309
ECF804FCD81B4E01
010D04EAA3F7652D
0B2805EA80FD4415
090C001596172AD6
FCF7020DCD2609E6
EBD70502EB22F901
F5F4FEED0715E308
FA07FCDDEAFDCEF8
E4FD01FCD4FAC1F0
CF19F7FEE6EAE6DB
CA27FA15E702DCD3
E334FE28E60CF723
0B26F947FF2A195B
34DC076B0F51294D
17D00554374EFD52
F411080AE707F50C
FDFE00F8021005F5
D01CFFD51A21ECD3
CC3405CF1B24EEBD
F429F8E50023F7DA
EFE20805FA29E8D7
FCF30506E232A9F6
EB0AF821F227A52B
E620F826FC20CC19
E90CF8220328CC12
F312041CF70EEE1B
01F1FE23FC23141B
F2F0F91ED63034FF
05030213AF055011
2017031488FA5839
2A29FA1788F74015
1216FF2FA62733ED
F9FAFA1ADA2B05F9
F8E601F7F122030E
02F8FBF60213E614
01FFFDEEE913CE0D
E41BFD00F700C9FD
DF3903FAE6FDC1ED
C8380108DDE68BEC
C5400218E3E29A12
CF5904EFEABF9519
FB0A0300F9FCA506
14C7F8FB2424C3ED
0503FEE2EBEDE4E6
171CFFE4FFEB1B0B
EA0B03E80A1CEFF6
CE30FACB1C22E7D8
F429FAE5000EF7E0
D8DAF718E033E4E2
EC070722DA32A9ED
E1040327EA22BA06
F0F40638FB1EE41C
FFE5002FED11F71B
FCF9FF31EA120E0E
FBF10032E7280E05
01FCFC39C2202002
29090423B4063316
4314F724B9FA3933
3E27F82DCA053E0E
0F320621C717300D
0903FD0FCD27160B
0EE8FC04F612FF04
FEFB02F3031BE608
041303F4F218E30B
EC21050AF72ADEE7
E724FC12F516BADB
D326F80FEBEE80F0
D737FFF3E3C88000
EF41F7BCE7BA80E8
0AFF00C5CFD994DB
43C103CC09E0B2CD
2AEBFBE8F9DDF5E0
1210031411191013
E0FBFCFD0D17FFF0
D52605DA1C21F5D5
132106F50B1C02CE
E0C30017D833D3C9
DFFBFA15D42CCFCD
05FDF916D21EC2FE
03E8FB21F314D911
13DFF72FED00FC10
0FDBFC3AE7031614
02E4FC42DA231511
F71C0139B2180D0C
1729003EB60A1910
3632F82DD4032818
3136062BE4FA3611
2223FF25D5171D0E
28F3021ED32A1B0C
FDF60623D82FF8F6
F9FBF6FDEA31E4E4
E010F7F5E930F2C9
ED0DF9F8081F01DC
F00DFE070E09D2E8
E909050BFF0198E8
E71A01EBFED680E1
062704C1FEBA90EF
0F05F9BEEECFB107
59D302CB2AC2C4D0
2DDEFDE223EDEADC
1607F9041B19170A
E3F90612E3EF070C
EA1006F706EC03D7
14F8FBE9F81D03B7
FCC1FFEDD111E1CC
0CDF01D5E3FBE1CD
2CDF06EED91DDFED
0BE7FFFEE204DAFD
FFDE022DE8FCF4FD
02F6F83DE30D0011
F1FEFA4FE5191411
FF200652D0050F1B
2039F851DC042223
3641FA42D9F72718
3A4AFB16D0F7310C
1B14F91CC81B11F6
2CEE0222C61115FB
05EC0424D43A0CEA
E80FF905ED36FADE
EAF3FDFFF427EBDD
DEEB05FA0F0804E2
EDED030C1405EFF8
D5F1FE21E6FBC6E9
E3FA0211F3E0A5EF
140302CE0BBB98FE
3C11FEBCFCC4B70B
3EC0FAF230DAC6BB
25E801E718DBE5DE
ED0BFAF30F10F4F6
FA17FD0FDBE7F416
0E0A02F4E6E0E3FC
42E504D5F9FDFED5
27C9FACAE0E907C4
26EFF8BDE4FC10B1
21DC06B6D715ECB9
FADEFCC7DA0AD2D5
E9FC0706D50EF1EB
ED0D0217E5FBEEF4
EA17032BF5F50B20
FC39043AF7F62431
0F36004DED161519
2A3BFE32E0042000
292C0113C1F020EF
1A07FA17CF2508DA
1CF00015CA1C07F0
06E9011AD743FDDD
F4FEF803ED22F3E6
F5F5FDECFC17F4E7
F6E9FFE50711F5E0
00DFFCFA05EFE2E7
00D4060AF3EDACE8
02F202FFDED8ADFD
27F4FEE109CEAC06
5C0DFCB80FBEA4FE
46BA05CA36D1C8AC
18EA08E627D2F2D6
F80801FE0102FFFB
00FA0419E5D0F214
0C0205FEDEE9DD00
51E401DFEFE8FAFE
2CB8FAC2F4F708CA
2AD205B4D40B13C3
28C503A4C813F9DA
10D103A6BB14EDD1
FFFF01ABC70DECEF
EC1D01D0DC06FDFC
F038FCE0F0E81E25
ED3EF8EDDE0D1437
F631FB09C6FF1208
152DFD03B50822E4
202203F3B9092CDA
26FEF914C32617D6
0BEFFB19C52DF3E7
FEECF811EA2AF2EB
0B03FF00FD1DF9EB
12F404E60A09EAFA
FDF4FCF10A0502F6
0EEAFE0106EDDDFB
05EFFBF1F1DAB8FE
FE03FA03E0E0B909
0F1A02E909F7B600
4309FBC44ED9B3C9
29E508DF2EEDD6AD
F40606E613E0D8E7
090302ED0327F317
00F2FD04EDE801EC
0108FB05CCFCFDF5
49E6FCDFF6F1D7FF
2FC6FFC006FAF7E3
2CBAF8CCDC0FFDDD
2DAAF8BCBF2207ED
26DAFB99CB17FEE1
000FFC81D3FAF3E7
FB27F69EC5F30CFA
EB2401C4C602001C
E62900CDBA0214FC
F83A05D6A50328E7
0E2905E0B40C2AC6
1B0FFDEBB60E2BCF
14EBF801CB1800DC
28EEFD13E612EEE5
27F6F6FD0515F606
1A07FCF411FFF2FA
17F4F8F309FFE801
0CFF01F40905EF0B
17E0FAF90BE9C3FF
0FF1FFE8F9DB9D08
28FA05DCFADBA916
281001D707F4C20C
5D1005C02DBEE8E2
060D03F438101CB3
35F100E223DE0BCE
050F00FF05EF120F
D919F9DF0F06EBE1
000BFA01250EFA11
23DBF9F715FAAA08
1BABF9F314F8E3E0
20A3FCEAE713ECE9
14BCF8DCE30FFDE7
1AE300ABDFF9FFF0
0F04FFADEBFAF0F0
1B2804ADCAF3F409
FF2804B9CAF50406
F54101C0C8F51FDA
F337F9C1DB0422D4
032201C8E1F921C5
0708F8E2F2130DD0
2C03F6F7F9FBF6F6
2DEFFB0611F6FEFB
26F3F9FA20F3F307
30F706F811F4EF1B
27F1FDF60DF1F023
1E0306FC1DE9DA1C
21E704FF07DBA71A
19F703E802DAA02B
32F9F9EAEFE1B03A
250AFBE2F20DF325
6E0307CE1DC5FEFA
45E2FFF02CEB0CC5
19F603E710EC1AE1
03FA08FEFDFAFB06
F107FA0603E901F6
18F8FB0139FFEC0D
33D6F91122E79704
22B4020117E5C0F7
09B405091101ECEE
19D604F1F9E6F2F8
1FE8FAD1E9DBF6FF
1DFEFAE8FFF5F506
1F1CF8E0F4F1FA0A
0435FCD0EBE7020C
FE36FBD00DDE0AE3
F040FCCC1CF703ED
F41E00D8270A0800
0816FADA2FF80109
0D0BFFF43EF0EF1C
22FBFAFD40E1F119
20EF010B25F2F626
3AFFFBF410D4E533
29F806FD09DDEC33
2AF6050206D0C62A
21FD01FD06D0B229
22F7030A12F4B536
29EF06F80508C528
39DE04D7F90FF30D
63EAFEF21706F518
37FDFBE229D913E0
140DFCFF17EF2012
131C03E8EEE914FA
0BF6FB0203FDF3F1
30E9060018D3D6EB
41E2071016C3D3F3
24C906300EE3E50D
19CB061906DBE5FF
0FE20706F9C8F009
04E30306F8E2FC18
0BF6040A15F30618
0B0902EA19FE0C1B
041504E41DF3FB16
F516FBDF36F5070E
EB1E03E642060323
F324F8E04809FC31
FC20F8E04DF5F83D
060D030046EEF22C
11F5FC023BE7EA2A
2B01FBF821ECF92C
410403EE0FD7E62E
3EF703F313D9CF24
2607FF0C02E2D42B
270406FD0EEABB1F
22FAFAF61404A929
39EDF8F1280BEA1D
53D6FFF41E150615
53F6FFEC1AF10410
0407FEE821E3DDEB
FC0B00FA0CFD0500
1B0E05EDFCE31CF7
080904FAE9F406EF
26ECFAF309D7D0F7
3BF40719F3CDD8FC
2CE1FC32FFF1EA0A
1602F70B06B600EE
00DC060B07BBF2F0
EDD6060F18E5F4FA
F9E306062FE90209
05F002FB33E8070D
F7FA000536F4071A
EDFFFFFE3C08F726
DE0EF6F633120335
DC1303F04403063C
DC1B02F83CFF0534
F313FC0434F6FE2C
F71BFA062EFFF81F
1304010A21F0092A
30FB01F713E7F825
2101FEF308DEE50E
3FFCFC0003E9DB23
2D01FFF3FBF7CA1C
26E7FAF10D04BE13
2DDAFE091F1EF712
35C6FAF705251F0A
301302FAF803F60E
EC32060AF0061514
FA05020309FA0202
03FBFB050306F8FD
F901080501FAFCF9
26FFF8F8E6D5C716
2DDD073CED08CE2D
28E0FD321C16DF02
1CFB05181DEA080A
F5E9FB0922DCFEFA
E5D7040A27DEEBF0
F1E4F90E28F00E1F
E6F5030538F41810
E6F1F71345F5091B
EBF8011543F80621
F421F6FC3BF3162C
DB28FD0D1DEC072F
DE1CFE1121FD0326
EB27001023FBFA1B
FC2C000C0B040B1F
0707FBFB19EF0916
1BE102EA0BF2F61A
31ECFEEE04F3EC15
47EAF9F9F106DE29
37DE09E7F213C60F
4ED002F0180DD90E
55CC07012617E51C
51BBFDFD0E1DDA1D
1A0600F11C00F0FB
152F06FCECF619F8
060307FCFA05FA00
060005FA0208FBFD
0602FEFEFA03FBFC
17F1FF12F9EECE0B
F4CE04491112CD30
FBC0FF403A1DE205
F0DBFC2B371E03F5
FED20325280BE20B
EAC4F929230FED13
E7D3FB1D2D07F11F
F7EEF91A2F0BFA2C
F8E9002C2218FB2B
E7FEFF1D2119EE16
EC07FA04300BE821
E308FE0D3411F00D
FA05FB07310EF002
FBFBFC0E2A140713
01FAFC090A270119
19D3FBF826050D17
35E4FEFF2B0A2824
38FDFE09071E0C13
36D5FB16F429FC20
4EC5F9FBF10EE2FE
42D7FD060B1BFF03
42CE04100114121D
41D809D930E0F015
2D0CFFCE14D6F8E8
1C0FF9EC00E3F4E9
FEF9F80702080206
000706F9FA03FC02
060805FB02FC0002
1600FA13EBFC0318
F419FE2329280505
EFE40835282EF2E7
01D2F94B0632FAF8
07E0FF29110CD11E
03CA083C241DDB17
07A3053B3613DF11
0CC40153461FDB1B
14DA0254183DE621
09E4014A1541EC13
23C1FE412925F712
1FBCFC452132EA13
18C1F92B1B3FEA0E
1FD5FC1B233F040B
12D0FC1E2146191D
27CE011D314A3120
2BC705262F4B280E
2CB2FB3C20321D15
32BFFD3C072D2A20
39D7FE390150250A
2FD9FD3E114C1E15
3ACF0146124F301E
38EDFB3A163BEE2C
12F003F1F6F3E7F8
130601ECFEECE2E8
000206070703FCFF
06FA06FD06FF05FB
FAFEFE03FF08FEFB
060503FD06FD0506
FFFBFA0AFC100E0B
20E9FF2AE2FB390B
1AE5FA2FE4062C1C
16DF0024F11A250E
15CDFC1AF90E0520
13B4010E1624FF1F
25BF012523281325
29BFFA3A0F2B2131
29C40345072A3029
22B3FA4F182F3E34
27AE01391D411218
32B2FA4027452723
19AFFA3237353D06
1AC3072B312E4F0C
0DAEFB3010324A1C
01B3032E232F2A17
01BF010B332713F3
19BE003206371E0D
07DDFE18FB5813F9
FEF9FD130B4105FA
16FDFD1EFF25F525
F81BFD0CFC0FFD19
F3F908FB130DF2FB
FD06FCFBFD0700FA
0106FBFBFF070207
070406FB020107FB
03FBF9FB07FFFAFA
F8FD07F8F9F8FEFB
FBFFF90801F90804
FB1902E42D20EE03
F91705D92C27F1FD
EB0BF808311402FA
E60C0502310305E2
E515F8F72D03F6E1
F10705F3201E09FC
F307F9F9362F1CF3
0EEE04051D2323FF
13E3FE0F26172703
F2FB08E04E2F06E5
1AF801F140312D09
130B07F51A242CFC
F00703F0262419F7
C3F906EB4B370BD8
E1F3FB06163721EE
E1FE05F9132F28FF
ED0E04FA152700E7
E426FBE6073A01D9
FD1E05EB042E07E3
E703FFF0021FFBF6
FCFB000608FBFFFE
F8FEFDFEFC04FD00
07FF0006FD0600FF
0405F80201FBF9FC
03FD0807FA0205FA
05FA04FCFE05FC06
0700FE0600F90606
06F9FEFC05FA0100
0603FF05F80704F8
0504FCFB02FEF9FB
070106FFFEF80703
0804FA0504F903FE
FDFF020100FCFA05
FA03FFFAFBFC0804
0807FAFC03060002
FDFA07020800FC00
FC03F5ED0B1910F8
F50CF8FB0C0E0BFC
03FCFC0612F104FB
0AFCFD0209F706FF
00F9020005FF0002
03FEF9F802050500
0604FB0304FAFC07
F903FBFBFE040101
FDFFFAFC040307FD
FF0701FBFA000003
00010104FB08FA06
FDFD06FEF9010305
FF03F8FBFD04FEFE
F904FBF8FDFE05FB
F8F9FEF8F90102FB
08FA060305FEF907
F906080205FF0400
FD03FE040202FA05
00FB07060707FB04
0206020307060107
0700F6EDFC0F02F8
FFFEE5F00D0A02ED
E7F8E8EB1EE1F9E6
E406E1EC16EEFFDC
E406DCEE13FD00E1
DFF9DDEC1210EEE6
E2ECE3D51625FFE1
D6E8CDD019F610EA
C6D3D0C013EE05E5
DAD4D3CF1C031CD1
14FC020D0223FDD7
02E3C3EB0C0118D3
03F8C8FC2FD816C1
D5F5B3E239DB14B8
CEF8C5DC1C1BF6D5
CDD9D3D72714F2D6
D4E9C9CD2E02E0CF
E7F2E0E20EFAEEDB
ECE0E3EA16E1FDE0
02E1E6F715E3FDE6
000507F8FB00FA02
FDF90603FAFB06FD
0003FE07FF010108
08FA06FFF9FB00F9
07F9060502FAFD06
FC03FA00FAF806FC
FB00E2F3120EFCE7
00F8EAF9FDEB0FEE
DEFBDBDD0FEB1DDC
DC08DDF21906E2D9
C718D8E92608F3DB
C10CC9DD3AF1F6C4
A611C7E14201E4B4
C906B6ED4EFD04B2
DDE2A0DD6704FAAC
F6D59DE85109F8C3
F8EF8EEA3A0D09BB
FEE6B5FF2238EEBE
F3E0C8013839CDC7
FDF3AF112238D0CE
E1E2BC0F101AF9E8
C7ECC0F4051EE5EC
C0DEBDE50025E7D2
C6A8AFD9FA30DBEE
C8B8B2E81E22E8D3
C1C2CCD92711E4CE
C8D4D8D32212E2DD
EBDFC7D728ECF1D8
F711DA0D25EDFCE7
F40FEE0D10F00DF2
FD04FD0307F902FD
05F9FE00FEFD02F9
060604FB0001FEFB
02F908FEFB080101
1711FE19FF191105
EA00DFDFF6E71BE5
E702F7DDF5111005
08E2D8E6000FE904
02F9B8E50B25D8EA
04EDA4E5FE03DAF0
FDEDA1CE04E9FCE9
E70DA2EC29FA0BBF
F3E28EF127F001CD
04D08AF922DB12D3
23E6800C06F337E9
09D681160DE328CE
02C4A00803F51AEC
FFCBC60BF6F61EF5
FCBEDB0F07F70DFD
EEADEB02F7EC0107
EAC6EA01ECFEE700
DDCAE0E8E91BD307
F9D9E2E2D31FEE0C
D1F7D1EDF42DE6F5
C620CCE20C38E6DB
DFFBCEEC0A1DEAD2
D8F1D7D5020209E1
EC1A1300FDF90E00
F4F2F6EB04E7FAF7
FBFF06FCFDFA04FD
FA01FB01FCFD0706
15080D00F9FD0618
230A1115EF131611
1DF3FAE9E50C270E
FEF703F31313E002
25F9D1F0FF0DD305
21FDAFFDFFEEF106
18F4CCEE03F6ED02
28EDC7EA03F302F7
1EEABF020FF014EC
20E5B4FCFBFC23F3
1DD4D003F5F34707
28E9D925EF0639F3
21E8E628F1101AEA
20EDEE2FF50F2DE3
0EF1F11FF40829F5
00E6F323F8190EED
E6E3EE1C09FAF9F8
ECE9EB15EB0101FC
E5E4F617F915DD02
D4F5021E0125E4ED
C1F6F7F6E541EEF4
CB0FF2F3F72BDBFE
A32CEAD5FD38E7E6
D73302FBDA260802
04340408EA0715EB
1F1407FEF4FA28F0
09EDE8E81FDAF1E0
03FCFE0407FA05FA
04F9FC040706FAFA
1902CE0D1303E5F6
21E0031DECE81631
11D6EB0E0DE8C9FA
3CEFF2FEE719F51C
2DF4EFFCFA11F817
1BEFE90204100214
1506DCED060D0105
1C05EDF0F718090F
0AFBE1F000FC1A09
1316FCF6FBFF330A
141A161203002BF8
170E0F070AF527F1
20080603060D0DF8
25F206140F1208F4
12E8FF210C0312FD
EFE1F22217000EEF
E8D8EC1D08EF03FD
ECDFF32606FFFBEC
EDFEF725FD0C0AEC
D006FA1FFA050AFB
CA12F71CED14F908
C310DE020030D807
CE20E5EEF53FECF7
FA2CE9FCF50924F0
0BFED8D8F2150BEB
08EFEAEE1600EFE6
0105060804FEFE05
0FFFEA12F8F41311
070002E20918220F
2CF207FBF5FE180A
16F4F2100507F60C
090CFD18F218FC1E
2005F6FFFC130527
130CF8F700140F0A
1A0AEBEFF80E1708
2313E8F2FF0E0714
121C03F3FF092B0E
151E08E60E0A2EFB
072012E604072CF7
191209EA09E23004
16FF04F006E52702
2BFD02F111F623EF
29F605FD10EF2BF3
1EF30EFE10F027F7
15E7080603F02802
FC0307120B0617FB
FF100E18020D1801
F7100A0E06F7200A
E007070C020C0C11
D30A0A14FB23E61E
CD1FD9F1D94BFC0F
FA35E6FCE341FEF6
FE20EEEFDE3E0B0B
EEF7E8EC0009F4EB
FA0912F3011102F2
2D14DA0DEEF33323
EE1E11F91A1027EF
2BF91B1605041507
29F2E92E1AF1F3F8
1009F11FFDFFF617
1EFEF41402FB0B1A
1408ECF6F3190D07
1919F5FFEF1A240C
0C150400FF111B0A
FC1907F709182EF1
EC1705E4080A19FC
112004E109F422FB
221312F613EA2411
1BF9F9E202DD2614
29F808DE0ADF30FE
1F021ADC0BE83E06
15031FEEFFF62F09
0D17240204013501
150A1D1609022705
1608190A08152009
F61A13131C0222FE
F21D132219061615
E31B3009FB141A17
BF21F4E8EE290E09
E92DF4F3DF310711
091BF8ECEC5AF009
EAFAF8F9FD0003F3
EBE7ECF2F5E9210F
0E36F4EE000B27E7
EF1820041615FC03
1F041D24000F1C01
3603EB3112F7F1EC
11090315FF120506
17150F0A01121D02
2510080CED2519F8
121E0BFCFA1C25FF
F00B120F031F1DF8
E9151300030D1CF2
E41712F8001D1EF7
0B0E1301080C29FB
28141BFF0EF92502
391818E30ADD2D1D
3A051EE3FEDC3615
300320F3F9D44D0E
1F0922FAF1E14208
1E12300FF4F94718
19091E1905F72F0C
1615171FFDF92718
0E1A120D17FF2416
0F27171208002D17
D04B17FF0AFD370E
BA331DD9E7182E16
E63F0BF2E35E1526
1A431207EF3D1005
1F341C23F0023FF0
1616010AF9120EF2
134B2DD7022124F6
00430F07F70A1509
35261129000332EC
3AF6F31401FE2FF0
1C120420070114EF
241A1001F1182AFA
1E0D110EF0132205
0A16070BFA1B1B06
E9141206F9101DFC
E60C05F205101FF9
E02208F1F62B24F8
0A2817F601232E00
2C2624F409F13509
512E14DBF1E7420E
491D1BE5EBD4262A
290D2703F3D63E22
1A132D12EFE35318
1D0E3918F3E73517
2106342606E62B14
2308241A17F02118
1F101215070A2B09
2522150D0EFF3310
E93821FF0FEA3F02
B0390EC0E2075C1A
F456F7E6CF535F17
1D780B06DC4C3908
17310FF2EC201A1B
131406FD001118F7
02422FE207180FF1
0A2420EBE60A2CF7
47EEED14F9E0360C
21FE0E14FC073FEA
0F24FA1D1AEB23E4
191FFF0E13FE24FC
05120006F50E1A00
E3110805ED191EFF
DB1320FDFA2819ED
E02618EAF73119EA
ED320BF1F6271CF2
00451AF8F5242004
303408E9EEFE3DFF
462C14E2D2F15006
28231A02C3042E23
0B081900D7EC3F23
0D031816EAE1251A
22042C1F07E32A08
38FD303518EE0D00
38FF2A160DEC1A04
2E0923131BF52BF7
1B1524FA1AF339F4
E91708DB08DC5BDC
982EEEB5CB0967FF
D24BDCBEBE465742
DE6EDDF5B9305A37
1F2C1A13D818220F
FC2123FA05090EF9
05F900EDF20B27D9
220013E7002835DF
49CF0E14F2FF3607
2C130502081727E2
043B0506210B0BCF
F42306F013051CF5
E4291BFF061A07F5
E41B30FDFF1B01F6
DD252AEB062EEBEC
F41526E8FE35F6F7
071C2AEFF03605F6
17222006F024050C
261209E4D60D38F7
370F08F7BA174BF8
210D2012A9381520
00F11005C61DF910
1FD61AFCD3000514
33E02B0EECF3060A
35F3232C1DE5F900
49E830012CE9F9F8
0FF422EF3AEB01DD
130E27F02AEA1DD0
DB11FDDB08DF36B7
B50DF2E3DBDC51C2
D82ADCDEBF175E1F
E65EFC0CB129571C
0F111417DD3C1606
F0110F00030BFE02
1B1F11FFF52F29DE
221A23F9133327DB
22DE2003021212E9
220E12E1080E11EA
F5120BE30D10FEF2
DD0609DC0504000B
E91A27EF0C23FC02
E82529DC1731F1F9
F80624E00832EEF8
FDE719E1E634E713
FDDB15F4E930EA09
0CC9041AEE19EA0D
25D1FB01DE050E00
3EEAF6FDB8161D01
32F61A0BA7340007
24E30DFCC02AE805
2BC720F0D012F501
30CA250AE705F018
2DCF361F1EE2EC02
17D03A162DF0FBF4
FEE83B0D3EFDEADC
DCF32BF54FEBE8CC
D8F01EE541E8F5B3
C8E507293EC9F8AE
042BFA1DF7E718F1
FE4EFE2DCEF22E0A
211F031507F9EBF6
EA0EF11AFA16E4FF
092A1C0F031D1DEA
1B2415E906262BDE
1BDE1EF2FE120EF6
FDDB2BBCFD19E304
D5E219D8041AEA02
D9CB13D41514EB0C
E4D936CE0A1DF624
F7E132DF1920EA0E
F5F029EAFE26EC04
E6D40DEBFF17DF09
F2B40E18F114DE07
F89AF225DFEDE80E
1EC5DB29D5E6F802
41EEF81AC0FDF902
2FF21313C72CD6F6
33EA1109D727DBF4
2DE51304E815E20F
1FC82417FF0AE517
12C92D131FFFEF0F
FBE833131D1AEF02
E1FC20012E0ADDF2
C2F00DEC3EF9DEE7
ADDBEDDD3DEDD3DB
BBF2E00C51CED6D7
09120B3434DBE8E2
0B55F84F23C9F309
EF2AE4241EE601E0
ED0BF4F8E3141613
0BFB1EF8E91C1102
240516E8E03A31E5
0ED00C06041D05FE
F1AC2EEDFD22D249
C99B0CE7071FE510
D68D1CD32A0EEE0C
D39525D02D02F023
E4A719DE2017E31C
E5B40BE40F11E813
E0B3F9F9FDFFF904
E6A0002211EFD7FA
00A2FD36E8DEEB06
2CE4F633DFE4FBF1
380AF82ED812E6FA
3B08FD22E829DAFD
27F70F18EC31DF00
1AEE3214F724E810
15D929011112EC0F
03DF22FF321DE50B
EDF01AF42C05F313
EA02FAE921FAE912
C800F1E61C09DB09
C0E4E6DE0DFADF05
CEEAE2F503E7F10B
12F9012445E9BFE4
1945D9364CC200F9
EE26EC1C30DDEDF0
E707EF04E8181A09
11FC18F8F8190A17
0FF31314D13BEA1F
04D90A1F1310FB0B
FDB30D09F7FEFF4D
DA83F5020EE8F625
DD880AEB2007E70F
DD8025DA36F4EB11
D08E1EED2E06EE12
D2B110032210F605
CFBC090614FDFC03
E7B7071710F7EF07
FCE0FA2500E1EB10
2E10013CFDF8F6FF
3E18F941F01ADEF6
2A05032DF920D70A
1309131E0A28D108
16F627021E21E30C
F8E415FA1B1CF100
05DA0BFC2105DF06
06F104E01DF7F31E
FCFAECEC1105E519
0FECF7E80A1BCD1B
F6ECF3EAE60EDC28
EEF6D2E2F7DB0721
F901E30F46E8DCE2
0750EE3132D7FC23
0D2AEB1E2CE40BE3
0C150EFE0C140CFD
22F700E7E50D1716
28E8EF09EC03FB0B
09E4DE1D01F10305
1BA2E604F1E8122F
E48BE0EF0FEDFA1F
D8AD04F41AFDF406
E09B1CFD29FEE30B
DA9E29062809F702
E0DA1410290604ED
E5F4060A1EE400F5
E6FDF9081EC7F40A
13120F1E0ED1FF13
2B1D032FFCF9EF00
19220128FE1FD3F7
050D151D052DD9FD
050E1322231DE8F6
05F02B053500E4FF
07E308F233FEE70B
F9D0E6E822FEE411
03E4FCED1603DD1D
FDF7F3051802DE1B
15F9E5F306F6EA23
16FDE4F0E900EF1B
18F5D501E3EF0E11
DB21C41B54E3DDDC
055CD55947CF01D9
FE32DE0423D70AF0
060805FDFAFDFAFC
26F7F4EAE5171820
12E4FE23FDFEEC0D
1DF2CF11ECDD2613
0FC5D412EFEA2736
D3BDD5FFFEF21318
D2E0E7FFFEF80905
EDCF090A1BF8DB06
E0DB1F0E1E04E6E7
DA0616101CFDF4E0
D5200B0923D4F1EA
E4210C0D23C6EAF5
0E2E1B1C1CC4E8F3
1C32241F0CFFCFF3
FC1F1C12092ECBF3
FE0913121335E900
FEFF17071715EF03
F5E308EC16FDF316
F3EBF7E622FFE013
06C8E2EF12F5E80C
F4DAE6EC1304E80A
09EFEAF71700F111
17F0E8F7FBFAFC10
1CEEE5F3E7120311
F3F7EB08F51216EF
DE30C41264D4FABD
1542DE3943D506DF
E33EE1F72BDE01F2
20F7FDE0FE0E12F2
19FEE30BE3F00007
07EC0403FE06F313
1FECD809E3F30E2B
FEE9CD1202E80E24
EBE5D129FCE41721
E702E21807EA1909
D808EF1A28EBFFF3
E8FB04140AEEF7E7
EC1A04080FEEECE8
DF23FEFB0FC5F6F3
EB3702FA10BCF001
D13E060E21D5E0E8
E83306091405D7EE
EF280902022DDFFA
010AFEFE0325EF0D
FDFFF5F61504F218
F6F3E9F319F7F6F9
F0E5EAF12102F5FC
02E7E2F60D08F7FA
FEEBECF60C12070A
0FF5E200000A0518
2802E713FDFC200E
0AF0CC18FAF215FE
DF0AC81F0FFB23EC
E02DAB0F3FD0FCC4
FA48EB092B0216EA
152DF31E2AFCE605
06FD0BEDF608EC03
101D00E0E7181FFA
E9E909E5F5110B04
FFE4E1F6E407FC34
FDE9D116F9EA142A
03E7D921EEDB1325
F400EC2905E11000
E816E82A24DD11EA
E720E5110CF623E8
E92FE10F01E221EF
E632DB0110C414F0
BE33D0EA13C0F5F6
CB31DFE41BCB03DE
E838ECFA0FF40AEA
FE2BF6FB011EF505
FD0FEC04021BFB07
FB0EE604170CED04
03F9ED091CFCF7FC
FEF4EE0511FEFEFE
07E3F2F70D181100
FCEFE9F900091102
0BE5DF0AFF04210D
18EAC8110EF339F7
0FF0C7190BF729EA
E60ED800F6043CF7
F150B71020D516DA
FF49F4372BE1F5DF
1C20E8111B19E302
FB0103FF00010403
F30410E6ECF01A0B
DEF9FDFE0A01F6FD
02E5CF08F2F5F529
05F0CB1703D80E21
FFFEDE0DFECC3B1D
0A0CDE300BE724FF
F80DD2391BE622DC
FB1ADD0E0CF327E9
F224C10905F01FEE
DD2DC8FD14D41CE8
D02ACFF311CF08F5
C633DFF617DF11E2
EC1AE7E0FDF21AEF
0109EDE1FB1503F4
FE14F900041EFBFB
FF01FAFFFC23F710
F3FE0905F51EF403
00F5F20203130B05
FEF2E80A001C18FB
13E7D50F0B11100C
0EEAD91F08FD2807
0DF2D40D00053D07
FDF3D30E10ED39FE
F118DA0906FA29F9
0036D3F3FDEB19FC
EA19DC1D0DF0E7F6
FAF8FEF0F00BFD19
F504F2EDEC10E70E
09FFF60C01E8F505
FC02CE130CDEF6FE
0804C11308E4010B
F2F7DF0CFFF81E11
F103FF1612F81C06
0A08FE2900F449FA
0101FA1B0DEC38E1
FE07E01609F70AEA
E921DF0A0CFA03E4
E81BDEFD15F2FFE3
E615DEF113EC17F3
F313E9E004F817E3
FD06E4E00B0E0EDD
090BE9E0F73010E8
FF04F3F3FE3801F2
0BF8FDFCFE210105
FA09F30FFE2206FD
FFFAE30E04120B02
08FCE71D07100303
FDF8DA12001E170D
E708E70AFC10190C
F0F6E41016EC2B08
D713E01616E231FA
C225F70106F31701
0B2AE2EFF7021C04
D0ECD7FAFCE41F16
F6FA0DF705000907
030BFAF2F411F20F
0FFFF509F9F7F80B
12F8D0130DCCF404
0AFCCC1302E10611
0202EB12FD121802
FB11011A11010FFB
0D052F2516E93DF1
12FB1C2D15E12EF3
FF10081719DE13EA
0B1701091AE111F1
09FF09FE11E7F8E6
050501FA08F208EB
060604F606F820E8
0E0203F1F80313E5
131106EFF71E22F3
10F9EFF4F32311F4
02F4EAF2EB151B06
FAF5F212E4221810
FD05E111FB141108
F302E91CF71D0D17
F506E60CFF0C0F13
F2F5F00F0EFBFE0D
F7F3E91D10D31B0E
E3FFF60E08EC2F25
D41B04FE00FB1E0C
FB14F202F3031505
CBC7DDE8E921071C
FC0806FD0BF90100
FEF9030404000501
0803FEFAF8FF05FF
27FBE614E6D61818
1FDBC0D6DBE32634
16FBDBECD00A341E
0804F7E4EE022412
170807030CEE060E
31FB211C15D51614
1604191F18CA1402
1016112318DF1A0F
19101213FDE21E21
240C0B0907DB1715
140E141006F41FF7
18081606FAF718F4
130610F7FE0D1CF9
0AFA03FFF8212B03
00FC0314EB2626F8
FDEBFE19ED101903
07FEF426F7090508
EE24E61D0D0FF509
F10CFC170D03F803
E50FFD241CE7EF03
F50EF20C32CD26EC
0310F1121DCD31F7
040CEDFB0AE31717
EB12EDFC07F70C0C
FCE7DAE3DC2EE92D
0808FE01FB08FD02
05050004010207FF
00FD07FA0305F9F8
20F1EE04F0EB150D
2AC2E4CEC5FD4B3A
3ECCEDADC2F8254C
20D212A7D30A0443
3DD911DFE6FA023A
39DE0FE4FAF4F234
2FF6180F04DE0D1D
1A130B0CFDF60C20
320D1801F9000D28
2B132011FE022021
140F0C0908012913
10060303E9FF3C17
070EF612E7043E08
0BFD010DE0083FF9
10F6F817DE0427FC
FEF7F002DBF9210B
ED38F10FF00124EE
EE390D12EC1817E1
01300809FF0008F3
011E011B11E9000F
0518EE0613D4F31D
0C13F4F81DCDF90E
E03ECFFB25CA23F7
D927D9222DE5CBE8
EB18E61115ECEC07
F9FFF802F908FA03
00F8010004070307
F803FFFA01040106
09EBFCF0F0EDF115
E13412E8F2201FF7
08F819C1FC1E0034
3CCF16BAF8F6F54B
4EE4F3E4FCF50D2F
61D902E803EF172D
7FD9FECBE8F62135
64D803D0DC111644
46E305E8E1101134
48F303DFE71A2B1D
53FEEBDBD51E3722
30F4EDEDD2143520
3101FEFAED1634EA
1501F1F2E11844E2
2AFCF1F8D6094DE6
1E30FBF1BC023EE3
2328FECFC1062AFC
320BF9B7D2EF3F00
2C0404C6FFEC2405
060703B905FD1E1A
EA12F2D2EC191438
F309EDD5E20D0B36
F016DDC6DF102428
F41CF70722EEFFEA
EF1BE7140EF3F7E8
04FB07060101FCFC
06050807FD06FDFD
FF06020401FCFB07
FB080603FDF8FBFE
FEF304FA0DFDF10C
06C919E833D9E421
11D103E92DD8E128
36E521DF37E3F315
6B022AD532FA08E7
681434C9220B2DD9
5CFB22B40B0B2CEE
4FEC08AC07FF36FB
3EFEF9A4EDF248FA
28F2EF9D05E948F1
4D02F790F3075EED
6FF71080070159CE
3FEFF580F1054DE6
58DE0480E6075BE7
54EF0B9AE5F94DD6
51FF068EF9F857DD
4215FF98FBF858F4
38FA0780FCF428FA
13FE119D05FF2CEE
290117BE020833D9
250720ED1BEE13E7
1EFA16E513ED08F2
FD0E1508E81515F0
060504FCFFFA02FA
070201060200F904
08030607F9FB04FD
FA02FFFA03FF0508
08F9F9FAFEFBFD02
01FEFC06FF02FC07
E9311F14D72530ED
F1311F1BD2302AE5
132B05E205FC2DE2
1A31F1DF13F028E8
1D30FCDE13FB3FDC
251312D5160A2FD1
132911D0FD063BE5
0209F9D302F836ED
0604FBCC18F42BF2
0E2F12C8002E59CB
482522BA190A55BA
2E112DDE110633C5
28181FE4081E40CE
322238E1122D52B0
3A0A2EC7310C31BC
2E2A1ED42B0128C4
2A0535C3280F15E6
2DEB48D41B1B19DC
21F42CE90C1D1DD8
1D0623FDEC1E20DC
03FCFFFEFF07FF00
040204F8FAF907FC
FC05050407FA00FB
F9F801FB04FBFDFE
