1916E3FEF5D0D013
C00A1219DC0FCC1E
2AFF0107DF32C113
051A11060801C3FE
E5DD16131618DB1E
DF15EEF50E1E08DA
3100BCB7212003E5
29201D0730ED0D20
EF1903CE1E1B120F
CA21E52D000602E6
0AD98F25EF1A2318
0409E7D9F7F2C030
ABBA370F32B907EF
13F821D6310016D1
FEF9CAB6F51D2A08
26E8B4231E1B240B
9D221CCE00E40BFE
DB373006A08027EA
1FFB1918F2F5CAE2
1BD43090F739FE2B
01D42D1E19C0DFCF
03101402EBEAEEF2
102EFEEBBCF51D08
D20D1BEE0A2623BB
05D71E2022F60110
0EE319AA1106FD1C
1E030E18E6D22ABA
F512CD11E01BF209
01D3D81305220BDB
1DAFEE22E5DE0101
24D720FFD44512A3
0DC8DAEE37F608E6
0000000000002DD9
000000000000E70C
00000000000004A0
0000000000001C20
0000000000000A1E
0000000000000FFC
000000000000F9EB
000000000000A2C8
000000000000A4F1
000000000000D712
0000000000002D17
000000000000FF27
00000000000022F5
000000000000C013
0000000000001EDE
000000000000BDB8
000000000000131D
00000000000031DD
0000000000001B10
000000000000C1A8
0000000000002003
0000000000000E04
0000000000009612
000000000000FDFB
0000000000000BEF
000000000000F519
000000000000FA08
00000000000013F2
000000000000CC16
0000000000001C14
000000000000D80E
0000000000000F13
