00000164
000008FF
00002EEC
FFFFEEB8
FFFFF28F
00000093
00000AB6
00002A88
00000759
FFFFF6E9
FFFFE9AA
FFFFDDD6
00000668
00000EA0
00000395
0000086F
FFFFE5F0
00002449
00001BCA
000028C5
00000AC1
FFFFFF39
FFFFFDF8
00001EF9
00001B44
FFFFFEB5
00002073
FFFFFB20
FFFFF645
FFFFFD1B
00001DA2
FFFFEC3B
